#include <cstdint>

#include "hello_world_float_model_data.h"

alignas(16) const unsigned char model_array[] = {
		  0x1c, 0x00, 0x00, 0x00, 0x54, 0x46, 0x4c, 0x33, 0x14, 0x00, 0x20, 0x00,
		  0x1c, 0x00, 0x18, 0x00, 0x14, 0x00, 0x10, 0x00, 0x0c, 0x00, 0x00, 0x00,
		  0x08, 0x00, 0x04, 0x00, 0x14, 0x00, 0x00, 0x00, 0x1c, 0x00, 0x00, 0x00,
		  0x84, 0x00, 0x00, 0x00, 0xdc, 0x00, 0x00, 0x00, 0x04, 0x07, 0x00, 0x00,
		  0x14, 0x07, 0x00, 0x00, 0xd4, 0x0c, 0x00, 0x00, 0x03, 0x00, 0x00, 0x00,
		  0x01, 0x00, 0x00, 0x00, 0x04, 0x00, 0x00, 0x00, 0x2a, 0xf8, 0xff, 0xff,
		  0x0c, 0x00, 0x00, 0x00, 0x1c, 0x00, 0x00, 0x00, 0x38, 0x00, 0x00, 0x00,
		  0x0f, 0x00, 0x00, 0x00, 0x73, 0x65, 0x72, 0x76, 0x69, 0x6e, 0x67, 0x5f,
		  0x64, 0x65, 0x66, 0x61, 0x75, 0x6c, 0x74, 0x00, 0x01, 0x00, 0x00, 0x00,
		  0x04, 0x00, 0x00, 0x00, 0x98, 0xff, 0xff, 0xff, 0x0b, 0x00, 0x00, 0x00,
		  0x04, 0x00, 0x00, 0x00, 0x07, 0x00, 0x00, 0x00, 0x64, 0x65, 0x6e, 0x73,
		  0x65, 0x5f, 0x32, 0x00, 0x01, 0x00, 0x00, 0x00, 0x04, 0x00, 0x00, 0x00,
		  0xba, 0xf9, 0xff, 0xff, 0x04, 0x00, 0x00, 0x00, 0x0b, 0x00, 0x00, 0x00,
		  0x64, 0x65, 0x6e, 0x73, 0x65, 0x5f, 0x69, 0x6e, 0x70, 0x75, 0x74, 0x00,
		  0x02, 0x00, 0x00, 0x00, 0x34, 0x00, 0x00, 0x00, 0x04, 0x00, 0x00, 0x00,
		  0xdc, 0xff, 0xff, 0xff, 0x0e, 0x00, 0x00, 0x00, 0x04, 0x00, 0x00, 0x00,
		  0x13, 0x00, 0x00, 0x00, 0x43, 0x4f, 0x4e, 0x56, 0x45, 0x52, 0x53, 0x49,
		  0x4f, 0x4e, 0x5f, 0x4d, 0x45, 0x54, 0x41, 0x44, 0x41, 0x54, 0x41, 0x00,
		  0x08, 0x00, 0x0c, 0x00, 0x08, 0x00, 0x04, 0x00, 0x08, 0x00, 0x00, 0x00,
		  0x0d, 0x00, 0x00, 0x00, 0x04, 0x00, 0x00, 0x00, 0x13, 0x00, 0x00, 0x00,
		  0x6d, 0x69, 0x6e, 0x5f, 0x72, 0x75, 0x6e, 0x74, 0x69, 0x6d, 0x65, 0x5f,
		  0x76, 0x65, 0x72, 0x73, 0x69, 0x6f, 0x6e, 0x00, 0x0f, 0x00, 0x00, 0x00,
		  0x24, 0x06, 0x00, 0x00, 0x1c, 0x06, 0x00, 0x00, 0xcc, 0x05, 0x00, 0x00,
		  0xb0, 0x05, 0x00, 0x00, 0x60, 0x05, 0x00, 0x00, 0x10, 0x05, 0x00, 0x00,
		  0x00, 0x01, 0x00, 0x00, 0xb0, 0x00, 0x00, 0x00, 0xa8, 0x00, 0x00, 0x00,
		  0xa0, 0x00, 0x00, 0x00, 0x98, 0x00, 0x00, 0x00, 0x90, 0x00, 0x00, 0x00,
		  0x88, 0x00, 0x00, 0x00, 0x68, 0x00, 0x00, 0x00, 0x04, 0x00, 0x00, 0x00,
		  0x6e, 0xfa, 0xff, 0xff, 0x04, 0x00, 0x00, 0x00, 0x54, 0x00, 0x00, 0x00,
		  0x0c, 0x00, 0x00, 0x00, 0x08, 0x00, 0x0e, 0x00, 0x08, 0x00, 0x04, 0x00,
		  0x08, 0x00, 0x00, 0x00, 0x10, 0x00, 0x00, 0x00, 0x24, 0x00, 0x00, 0x00,
		  0x00, 0x00, 0x06, 0x00, 0x08, 0x00, 0x04, 0x00, 0x06, 0x00, 0x00, 0x00,
		  0x04, 0x00, 0x00, 0x00, 0x00, 0x00, 0x00, 0x00, 0x00, 0x00, 0x0a, 0x00,
		  0x10, 0x00, 0x0c, 0x00, 0x08, 0x00, 0x04, 0x00, 0x0a, 0x00, 0x00, 0x00,
		  0x02, 0x00, 0x00, 0x00, 0x02, 0x00, 0x00, 0x00, 0x04, 0x00, 0x00, 0x00,
		  0x06, 0x00, 0x00, 0x00, 0x32, 0x2e, 0x31, 0x35, 0x2e, 0x30, 0x00, 0x00,
		  0xce, 0xfa, 0xff, 0xff, 0x04, 0x00, 0x00, 0x00, 0x10, 0x00, 0x00, 0x00,
		  0x31, 0x2e, 0x31, 0x34, 0x2e, 0x30, 0x00, 0x00, 0x00, 0x00, 0x00, 0x00,
		  0x00, 0x00, 0x00, 0x00, 0xf0, 0xf4, 0xff, 0xff, 0xf4, 0xf4, 0xff, 0xff,
		  0xf8, 0xf4, 0xff, 0xff, 0xfc, 0xf4, 0xff, 0xff, 0x00, 0xf5, 0xff, 0xff,
		  0xfe, 0xfa, 0xff, 0xff, 0x04, 0x00, 0x00, 0x00, 0x40, 0x00, 0x00, 0x00,
		  0x61, 0xe8, 0xe3, 0x3d, 0xc1, 0x22, 0x97, 0xbf, 0xa1, 0xd1, 0x08, 0x3f,
		  0xbb, 0xcb, 0x29, 0xbf, 0xcf, 0xd3, 0xdd, 0xbe, 0xb5, 0x25, 0x1c, 0x3f,
		  0x10, 0xe0, 0x4f, 0x3f, 0x16, 0xe0, 0x36, 0x3e, 0x5e, 0x44, 0x6b, 0xbf,
		  0x1e, 0x2f, 0xc5, 0x3e, 0x37, 0x5d, 0x9d, 0xbe, 0xa7, 0x49, 0xcf, 0x3e,
		  0xee, 0xbb, 0xec, 0xbe, 0xc3, 0xc7, 0x1a, 0xbf, 0x34, 0xcf, 0x97, 0xbd,
		  0x62, 0x96, 0x18, 0xbe, 0x4a, 0xfb, 0xff, 0xff, 0x04, 0x00, 0x00, 0x00,
		  0x00, 0x04, 0x00, 0x00, 0x16, 0x81, 0xde, 0x3e, 0x5a, 0xba, 0x2a, 0xbe,
		  0x4f, 0x38, 0x3e, 0x3e, 0x0a, 0xfd, 0xb1, 0xbe, 0xb1, 0x52, 0xc5, 0x3e,
		  0xeb, 0x57, 0xcd, 0x3d, 0xe8, 0xe3, 0xaf, 0xbc, 0xac, 0xd5, 0x71, 0xbd,
		  0x5e, 0x99, 0xc1, 0x3e, 0x88, 0x7f, 0x56, 0x3d, 0x4c, 0xad, 0xd5, 0xbe,
		  0xbe, 0x93, 0x2e, 0xbe, 0xc7, 0x37, 0x0f, 0x3f, 0xde, 0xfd, 0x46, 0xbe,
		  0xcd, 0x5d, 0x86, 0xbe, 0x5b, 0xf0, 0x44, 0xbe, 0x69, 0x4e, 0x67, 0x3e,
		  0xb1, 0xbb, 0xc1, 0xbe, 0x61, 0x06, 0xa0, 0x3d, 0x79, 0x4d, 0x59, 0x3e,
		  0x55, 0x19, 0xb7, 0xbc, 0xa5, 0xf2, 0xdb, 0x3e, 0xae, 0x9a, 0xc0, 0xbe,
		  0xad, 0x03, 0x07, 0xbe, 0x9d, 0x41, 0xf1, 0xbe, 0x46, 0xba, 0x66, 0xbe,
		  0x61, 0x4f, 0xc2, 0xbe, 0x1e, 0x6d, 0xb9, 0xbc, 0x93, 0xcb, 0xee, 0x3e,
		  0xd2, 0x4a, 0xe2, 0x3e, 0xfe, 0x97, 0xf5, 0x3e, 0x06, 0x37, 0x50, 0xbd,
		  0x6f, 0x02, 0xcf, 0x3d, 0x16, 0x4f, 0xb8, 0xbe, 0x1e, 0xae, 0x9c, 0xbe,
		  0xe1, 0x8e, 0x53, 0xbe, 0x29, 0xee, 0xda, 0x3e, 0xc4, 0x55, 0xc0, 0xbe,
		  0x63, 0x56, 0x1c, 0x3e, 0x61, 0x3d, 0x84, 0xbe, 0x73, 0x50, 0x66, 0x3e,
		  0xf7, 0x7e, 0x88, 0xbe, 0x0f, 0x61, 0x77, 0x3e, 0xf3, 0x48, 0x21, 0xbe,
		  0x11, 0x45, 0x91, 0xbe, 0x3d, 0x81, 0xb7, 0xbe, 0x90, 0x99, 0x1a, 0xbe,
		  0xf3, 0x07, 0x8d, 0x3e, 0xd5, 0x9f, 0xdf, 0xbe, 0xcb, 0xfc, 0x2a, 0xbf,
		  0xe5, 0xe0, 0x45, 0x3e, 0x5b, 0x29, 0xfe, 0xbb, 0x79, 0x8d, 0x50, 0xbe,
		  0x62, 0x04, 0x67, 0x3e, 0x5c, 0xc7, 0xb7, 0xbc, 0xd0, 0xaf, 0x84, 0xbd,
		  0x1a, 0x62, 0x7a, 0xbe, 0x5d, 0x83, 0x81, 0xbd, 0x13, 0xbe, 0x5c, 0xbe,
		  0x59, 0xa7, 0xa5, 0x3c, 0xd2, 0xaa, 0x08, 0xbe, 0xf3, 0x06, 0xb4, 0x3e,
		  0x42, 0x56, 0x21, 0xba, 0xb9, 0x86, 0x6f, 0x3e, 0xbc, 0x6b, 0x82, 0xbe,
		  0x9d, 0x0c, 0x62, 0x3d, 0x58, 0x24, 0x89, 0x3b, 0x00, 0x62, 0x54, 0x3d,
		  0x7d, 0x68, 0xc4, 0xbe, 0x76, 0xe3, 0x54, 0x3d, 0x1b, 0x5b, 0x91, 0x3e,
		  0xbd, 0x9a, 0x55, 0xbe, 0x1c, 0xee, 0x84, 0x3d, 0x1d, 0x15, 0x8b, 0x3e,
		  0xb0, 0x34, 0x92, 0xbe, 0x1d, 0xfc, 0x9d, 0xbe, 0x16, 0x1b, 0x00, 0x3f,
		  0x30, 0xd0, 0xb3, 0x3e, 0x7f, 0x94, 0xc8, 0x3e, 0xfd, 0xc0, 0xc4, 0x3d,
		  0x75, 0x5b, 0x02, 0x3d, 0x99, 0x57, 0x95, 0x3f, 0x9f, 0xca, 0x09, 0x3e,
		  0x89, 0x36, 0xe3, 0x3e, 0xfb, 0x05, 0xd4, 0xbe, 0xaa, 0x81, 0x8e, 0xbf,
		  0xb3, 0x01, 0xa9, 0xbe, 0x08, 0xce, 0xbf, 0xbd, 0x26, 0x51, 0xb3, 0xbe,
		  0x52, 0xda, 0xa8, 0x3e, 0x09, 0x13, 0x32, 0x3d, 0xe1, 0x60, 0xc1, 0xbe,
		  0x4d, 0xb1, 0x19, 0xbf, 0x14, 0xdd, 0xbd, 0xbe, 0xac, 0xea, 0xd5, 0xbe,
		  0x8d, 0x43, 0x77, 0x3f, 0x3f, 0xe3, 0x5d, 0x3e, 0xbf, 0x3e, 0x50, 0x3f,
		  0xf3, 0xd0, 0x8b, 0xbe, 0x31, 0x5d, 0x9c, 0x3c, 0x7c, 0x9e, 0x19, 0x3c,
		  0x76, 0x85, 0xd9, 0x3d, 0x2c, 0xdd, 0x9b, 0x3d, 0x98, 0x98, 0x85, 0x3e,
		  0xe1, 0xcf, 0x3c, 0x3e, 0x02, 0xed, 0xb5, 0x3e, 0x31, 0x17, 0xf9, 0x3e,
		  0x95, 0x6a, 0x96, 0xbe, 0xab, 0x22, 0x07, 0xbf, 0x28, 0xf1, 0x09, 0xbe,
		  0xc0, 0xa1, 0xd1, 0x3d, 0xe7, 0x60, 0xc7, 0x3e, 0x36, 0x50, 0xef, 0xbe,
		  0x56, 0x54, 0x6b, 0x3c, 0x86, 0x1a, 0xb2, 0xbe, 0x80, 0xd2, 0x3c, 0xbe,
		  0x73, 0x77, 0xbb, 0xbd, 0xd4, 0x44, 0x1b, 0xbe, 0xae, 0x15, 0x15, 0x3f,
		  0xcc, 0x65, 0xdf, 0xbd, 0x5b, 0x82, 0x38, 0x3b, 0xa2, 0x0b, 0x83, 0xbe,
		  0xed, 0x95, 0x2a, 0xbe, 0xf1, 0x56, 0xc5, 0xbd, 0xda, 0xef, 0x16, 0x3f,
		  0x06, 0x47, 0xae, 0xbe, 0x20, 0x52, 0xae, 0x3e, 0xe4, 0x1e, 0x0b, 0xbf,
		  0x5f, 0x52, 0x33, 0x3f, 0xc0, 0x36, 0xea, 0x3e, 0x5f, 0x42, 0x63, 0x3d,
		  0x66, 0xb8, 0x74, 0x3e, 0x8e, 0x84, 0xbe, 0xbe, 0xd2, 0x25, 0x05, 0xbf,
		  0xcd, 0x3f, 0x35, 0xbf, 0x2d, 0x30, 0x4a, 0x3c, 0x7c, 0x3b, 0x9a, 0xbe,
		  0xee, 0x98, 0x2b, 0x3f, 0x17, 0xd3, 0x78, 0x3e, 0x88, 0x01, 0x66, 0xbe,
		  0xe0, 0x2d, 0x3f, 0xbf, 0xd3, 0x2c, 0x80, 0x3c, 0x58, 0x0a, 0x1a, 0xbf,
		  0x98, 0x14, 0x12, 0x3f, 0xaa, 0x01, 0xe2, 0x3e, 0x3a, 0x87, 0x9e, 0x3e,
		  0x51, 0x97, 0x0a, 0xbf, 0x54, 0xfb, 0x01, 0xbf, 0xd1, 0xe9, 0x03, 0xbe,
		  0xe5, 0xa0, 0xe5, 0xbe, 0xb6, 0xd2, 0x20, 0xbf, 0x9b, 0xfa, 0x97, 0xbe,
		  0xa3, 0x73, 0x6f, 0x3d, 0x35, 0xda, 0xf1, 0x3e, 0x8e, 0x74, 0xdc, 0xbe,
		  0x6c, 0xa3, 0x6c, 0xbe, 0x2a, 0xce, 0x33, 0x3e, 0x0c, 0x35, 0xd8, 0xbd,
		  0x7e, 0x9d, 0x17, 0xbf, 0x84, 0xb5, 0xef, 0x3e, 0xd6, 0xa7, 0x95, 0x3e,
		  0x6e, 0xe3, 0x0c, 0x3e, 0xea, 0x09, 0xe9, 0x3e, 0x93, 0xbe, 0x13, 0xbe,
		  0x9a, 0x11, 0x1b, 0x3e, 0xb3, 0x63, 0xb1, 0xbe, 0x02, 0x02, 0xb8, 0xbe,
		  0x58, 0xaf, 0xee, 0xbc, 0xe9, 0x5a, 0xb1, 0xbe, 0x0a, 0x89, 0xa2, 0x3e,
		  0x64, 0x16, 0xd4, 0xbe, 0xb7, 0x03, 0x08, 0x3e, 0x9d, 0x7b, 0xdc, 0xbc,
		  0x09, 0x56, 0x5b, 0x3c, 0x03, 0x39, 0xc2, 0xbe, 0xd6, 0xb4, 0x05, 0x3e,
		  0xf2, 0x90, 0xbb, 0xbe, 0x27, 0xe6, 0x09, 0xbf, 0xf7, 0x57, 0x71, 0x3e,
		  0x15, 0x1a, 0x05, 0xbe, 0x8e, 0xa7, 0x59, 0xbe, 0x4b, 0xb9, 0x86, 0xbd,
		  0x3b, 0xbc, 0x0e, 0x3d, 0x8a, 0x0d, 0xbd, 0xbe, 0xb8, 0x7a, 0x90, 0xbe,
		  0xa3, 0xc4, 0x08, 0xbf, 0x9e, 0x30, 0xda, 0xbc, 0xf1, 0x27, 0x94, 0x3e,
		  0x98, 0x50, 0x2f, 0x3f, 0x7a, 0xa2, 0x58, 0xbe, 0x9b, 0x22, 0x40, 0x3f,
		  0xa7, 0x26, 0x12, 0xbf, 0xac, 0x1f, 0x61, 0x3d, 0x4b, 0x8a, 0x92, 0xbe,
		  0xb9, 0x95, 0xb9, 0x3e, 0x6f, 0x11, 0x27, 0x3e, 0x1b, 0x22, 0x15, 0x3e,
		  0x84, 0xcd, 0x70, 0xbd, 0x2c, 0x42, 0xc5, 0x3d, 0x19, 0x71, 0xb2, 0x3e,
		  0x20, 0x01, 0x7a, 0xbd, 0xba, 0x7a, 0x4c, 0x3e, 0x63, 0x78, 0x87, 0xbe,
		  0xd9, 0x80, 0xb9, 0xbe, 0x08, 0x3d, 0x20, 0x3e, 0x35, 0xe9, 0xb2, 0x3d,
		  0x7a, 0x67, 0xa2, 0x3e, 0x5e, 0x5d, 0x4b, 0xbe, 0xc9, 0xe4, 0x98, 0x3e,
		  0x3a, 0x4a, 0x0b, 0x3e, 0xb1, 0x85, 0x87, 0xbd, 0xd7, 0xa8, 0xe9, 0x3c,
		  0x1a, 0x98, 0x7d, 0x3d, 0x64, 0x49, 0x02, 0xbf, 0x8b, 0x8f, 0x06, 0xbf,
		  0x43, 0xd4, 0x8d, 0x3e, 0x30, 0x1b, 0x59, 0x3e, 0xab, 0xf9, 0x8b, 0x3d,
		  0xa6, 0x38, 0x40, 0xbe, 0x7b, 0x7f, 0xc6, 0xbe, 0x14, 0xb3, 0x19, 0xbf,
		  0x30, 0xc1, 0x43, 0x3e, 0xd7, 0x46, 0x2b, 0xbf, 0x75, 0xac, 0xa3, 0x3e,
		  0x32, 0xe1, 0x1d, 0x3f, 0xee, 0xc8, 0x8f, 0x3d, 0x8e, 0xca, 0xea, 0x3d,
		  0x9f, 0xa5, 0xf6, 0xbd, 0x16, 0x0d, 0xb1, 0x3d, 0xf5, 0x20, 0xa8, 0xbe,
		  0xa7, 0x5a, 0xa7, 0xbe, 0xf4, 0x8d, 0x35, 0x3c, 0x24, 0xba, 0x9a, 0x3d,
		  0x24, 0x35, 0x15, 0x3f, 0x2c, 0x18, 0x84, 0x3e, 0x6d, 0xfe, 0x89, 0xbe,
		  0x01, 0x3a, 0x05, 0xbf, 0x7c, 0x2f, 0x66, 0x3e, 0xb3, 0x4b, 0x06, 0x3e,
		  0x01, 0xad, 0x5a, 0x3e, 0xe6, 0xc5, 0x2c, 0x3f, 0xaa, 0xd4, 0xdd, 0xb9,
		  0x2a, 0x5a, 0x45, 0x3e, 0xe0, 0xe4, 0xbc, 0x3e, 0x68, 0x82, 0x08, 0xbe,
		  0x98, 0xe7, 0x26, 0xbf, 0x64, 0x36, 0xdb, 0xbe, 0x54, 0x38, 0xa7, 0xbe,
		  0x2d, 0x2f, 0x5a, 0xbe, 0x8d, 0x02, 0x17, 0x3f, 0x83, 0x8f, 0xea, 0xbe,
		  0x13, 0xad, 0x26, 0x3e, 0xa2, 0x93, 0xae, 0xbd, 0x34, 0x14, 0x5c, 0xbe,
		  0x1e, 0x37, 0x4e, 0xbf, 0x3a, 0xe3, 0x39, 0x3f, 0x56, 0xff, 0xff, 0xff,
		  0x04, 0x00, 0x00, 0x00, 0x40, 0x00, 0x00, 0x00, 0xc5, 0xc3, 0x83, 0x3e,
		  0x46, 0x93, 0x53, 0x3e, 0xd2, 0xb1, 0x39, 0xbf, 0x89, 0x52, 0x37, 0xbf,
		  0x1f, 0x03, 0x2b, 0x3f, 0x32, 0x2b, 0x4d, 0xbe, 0x2e, 0x8e, 0xbc, 0xbe,
		  0xa9, 0xe6, 0x3a, 0xbf, 0xd4, 0xbd, 0x3f, 0x3f, 0xd3, 0x3e, 0x34, 0x3e,
		  0x09, 0xed, 0xd9, 0xbe, 0x6f, 0x1c, 0x60, 0x3f, 0x69, 0x11, 0x2b, 0xbe,
		  0x35, 0x33, 0xe6, 0x3e, 0x81, 0x1e, 0x5a, 0xbe, 0xc8, 0x6e, 0x42, 0x3e,
		  0xa2, 0xff, 0xff, 0xff, 0x04, 0x00, 0x00, 0x00, 0x40, 0x00, 0x00, 0x00,
		  0x01, 0xa9, 0x2d, 0xbe, 0xc2, 0x2e, 0x77, 0xbf, 0x4f, 0x4e, 0x69, 0x3c,
		  0xab, 0x51, 0xfe, 0xbc, 0x87, 0xe4, 0xc4, 0x3e, 0x45, 0xb9, 0x73, 0x3f,
		  0x5d, 0xfb, 0xb4, 0x3e, 0x31, 0x00, 0xb1, 0x3d, 0x33, 0x5c, 0xb6, 0x3d,
		  0x6e, 0x45, 0xd7, 0xbe, 0x41, 0x47, 0xc4, 0x3e, 0x9b, 0x3d, 0xd4, 0xbd,
		  0x8a, 0xc8, 0xed, 0x3e, 0x83, 0x1b, 0x4f, 0xbe, 0xe5, 0xf0, 0x39, 0x3f,
		  0xb3, 0xc9, 0x4f, 0xbf, 0xee, 0xff, 0xff, 0xff, 0x04, 0x00, 0x00, 0x00,
		  0x04, 0x00, 0x00, 0x00, 0x86, 0x1a, 0xd6, 0x3d, 0x00, 0x00, 0x06, 0x00,
		  0x08, 0x00, 0x04, 0x00, 0x06, 0x00, 0x00, 0x00, 0x04, 0x00, 0x00, 0x00,
		  0x40, 0x00, 0x00, 0x00, 0x21, 0x9d, 0xd3, 0x3c, 0xb9, 0x87, 0x41, 0xbd,
		  0xf9, 0x42, 0x80, 0x3c, 0x4b, 0x57, 0x93, 0xbd, 0xe8, 0xe0, 0xbc, 0xbd,
		  0x55, 0xbf, 0xb9, 0xbd, 0x33, 0x7b, 0xd6, 0x3c, 0xa4, 0x71, 0xaa, 0x3d,
		  0x59, 0x03, 0x21, 0x3d, 0x40, 0x41, 0xf4, 0xbd, 0xfe, 0xf6, 0x92, 0xbc,
		  0x59, 0x60, 0xed, 0xbc, 0xce, 0xec, 0x2c, 0x3d, 0x05, 0x50, 0x63, 0xbd,
		  0x02, 0x94, 0x26, 0xbd, 0xa8, 0x0f, 0xcf, 0x3c, 0x58, 0xfa, 0xff, 0xff,
		  0x5c, 0xfa, 0xff, 0xff, 0x0f, 0x00, 0x00, 0x00, 0x4d, 0x4c, 0x49, 0x52,
		  0x20, 0x43, 0x6f, 0x6e, 0x76, 0x65, 0x72, 0x74, 0x65, 0x64, 0x2e, 0x00,
		  0x01, 0x00, 0x00, 0x00, 0x14, 0x00, 0x00, 0x00, 0x00, 0x00, 0x0e, 0x00,
		  0x18, 0x00, 0x14, 0x00, 0x10, 0x00, 0x0c, 0x00, 0x08, 0x00, 0x04, 0x00,
		  0x0e, 0x00, 0x00, 0x00, 0x14, 0x00, 0x00, 0x00, 0x1c, 0x00, 0x00, 0x00,
		  0x1c, 0x01, 0x00, 0x00, 0x20, 0x01, 0x00, 0x00, 0x24, 0x01, 0x00, 0x00,
		  0x04, 0x00, 0x00, 0x00, 0x6d, 0x61, 0x69, 0x6e, 0x00, 0x00, 0x00, 0x00,
		  0x05, 0x00, 0x00, 0x00, 0xd0, 0x00, 0x00, 0x00, 0x9c, 0x00, 0x00, 0x00,
		  0x5c, 0x00, 0x00, 0x00, 0x38, 0x00, 0x00, 0x00, 0x04, 0x00, 0x00, 0x00,
		  0x52, 0xff, 0xff, 0xff, 0x10, 0x00, 0x00, 0x00, 0x00, 0x00, 0x00, 0x08,
		  0x0c, 0x00, 0x00, 0x00, 0x10, 0x00, 0x00, 0x00, 0xdc, 0xfa, 0xff, 0xff,
		  0x01, 0x00, 0x00, 0x00, 0x0b, 0x00, 0x00, 0x00, 0x03, 0x00, 0x00, 0x00,
		  0x0a, 0x00, 0x00, 0x00, 0x06, 0x00, 0x00, 0x00, 0x02, 0x00, 0x00, 0x00,
		  0xae, 0xff, 0xff, 0xff, 0x0c, 0x00, 0x00, 0x00, 0x10, 0x00, 0x00, 0x00,
		  0x01, 0x00, 0x00, 0x00, 0x01, 0x00, 0x00, 0x00, 0x0a, 0x00, 0x00, 0x00,
		  0x01, 0x00, 0x00, 0x00, 0x09, 0x00, 0x00, 0x00, 0xa2, 0xff, 0xff, 0xff,
		  0x10, 0x00, 0x00, 0x00, 0x00, 0x00, 0x00, 0x08, 0x0c, 0x00, 0x00, 0x00,
		  0x10, 0x00, 0x00, 0x00, 0x2c, 0xfb, 0xff, 0xff, 0x01, 0x00, 0x00, 0x00,
		  0x09, 0x00, 0x00, 0x00, 0x03, 0x00, 0x00, 0x00, 0x08, 0x00, 0x00, 0x00,
		  0x05, 0x00, 0x00, 0x00, 0x01, 0x00, 0x00, 0x00, 0x00, 0x00, 0x0a, 0x00,
		  0x10, 0x00, 0x0c, 0x00, 0x08, 0x00, 0x04, 0x00, 0x0a, 0x00, 0x00, 0x00,
		  0x0c, 0x00, 0x00, 0x00, 0x10, 0x00, 0x00, 0x00, 0x01, 0x00, 0x00, 0x00,
		  0x01, 0x00, 0x00, 0x00, 0x08, 0x00, 0x00, 0x00, 0x01, 0x00, 0x00, 0x00,
		  0x07, 0x00, 0x00, 0x00, 0x00, 0x00, 0x0e, 0x00, 0x14, 0x00, 0x00, 0x00,
		  0x10, 0x00, 0x0c, 0x00, 0x0b, 0x00, 0x04, 0x00, 0x0e, 0x00, 0x00, 0x00,
		  0x10, 0x00, 0x00, 0x00, 0x00, 0x00, 0x00, 0x08, 0x0c, 0x00, 0x00, 0x00,
		  0x10, 0x00, 0x00, 0x00, 0x98, 0xfb, 0xff, 0xff, 0x01, 0x00, 0x00, 0x00,
		  0x07, 0x00, 0x00, 0x00, 0x03, 0x00, 0x00, 0x00, 0x00, 0x00, 0x00, 0x00,
		  0x04, 0x00, 0x00, 0x00, 0x03, 0x00, 0x00, 0x00, 0x01, 0x00, 0x00, 0x00,
		  0x0b, 0x00, 0x00, 0x00, 0x01, 0x00, 0x00, 0x00, 0x00, 0x00, 0x00, 0x00,
		  0x0c, 0x00, 0x00, 0x00, 0x10, 0x04, 0x00, 0x00, 0xa0, 0x03, 0x00, 0x00,
		  0x30, 0x03, 0x00, 0x00, 0xdc, 0x02, 0x00, 0x00, 0x94, 0x02, 0x00, 0x00,
		  0x48, 0x02, 0x00, 0x00, 0xfc, 0x01, 0x00, 0x00, 0x88, 0x01, 0x00, 0x00,
		  0x30, 0x01, 0x00, 0x00, 0xb8, 0x00, 0x00, 0x00, 0x60, 0x00, 0x00, 0x00,
		  0x04, 0x00, 0x00, 0x00, 0x36, 0xfc, 0xff, 0xff, 0x00, 0x00, 0x00, 0x01,
		  0x14, 0x00, 0x00, 0x00, 0x1c, 0x00, 0x00, 0x00, 0x1c, 0x00, 0x00, 0x00,
		  0x0c, 0x00, 0x00, 0x00, 0x34, 0x00, 0x00, 0x00, 0x02, 0x00, 0x00, 0x00,
		  0xff, 0xff, 0xff, 0xff, 0x01, 0x00, 0x00, 0x00, 0x20, 0xfc, 0xff, 0xff,
		  0x19, 0x00, 0x00, 0x00, 0x53, 0x74, 0x61, 0x74, 0x65, 0x66, 0x75, 0x6c,
		  0x50, 0x61, 0x72, 0x74, 0x69, 0x74, 0x69, 0x6f, 0x6e, 0x65, 0x64, 0x43,
		  0x61, 0x6c, 0x6c, 0x3a, 0x30, 0x00, 0x00, 0x00, 0x02, 0x00, 0x00, 0x00,
		  0x01, 0x00, 0x00, 0x00, 0x01, 0x00, 0x00, 0x00, 0x8e, 0xfc, 0xff, 0xff,
		  0x00, 0x00, 0x00, 0x01, 0x14, 0x00, 0x00, 0x00, 0x1c, 0x00, 0x00, 0x00,
		  0x1c, 0x00, 0x00, 0x00, 0x0b, 0x00, 0x00, 0x00, 0x30, 0x00, 0x00, 0x00,
		  0x02, 0x00, 0x00, 0x00, 0xff, 0xff, 0xff, 0xff, 0x10, 0x00, 0x00, 0x00,
		  0x78, 0xfc, 0xff, 0xff, 0x17, 0x00, 0x00, 0x00, 0x73, 0x65, 0x71, 0x75,
		  0x65, 0x6e, 0x74, 0x69, 0x61, 0x6c, 0x2f, 0x64, 0x65, 0x6e, 0x73, 0x65,
		  0x5f, 0x31, 0x2f, 0x54, 0x61, 0x6e, 0x68, 0x00, 0x02, 0x00, 0x00, 0x00,
		  0x01, 0x00, 0x00, 0x00, 0x10, 0x00, 0x00, 0x00, 0xe2, 0xfc, 0xff, 0xff,
		  0x00, 0x00, 0x00, 0x01, 0x14, 0x00, 0x00, 0x00, 0x1c, 0x00, 0x00, 0x00,
		  0x1c, 0x00, 0x00, 0x00, 0x0a, 0x00, 0x00, 0x00, 0x50, 0x00, 0x00, 0x00,
		  0x02, 0x00, 0x00, 0x00, 0xff, 0xff, 0xff, 0xff, 0x10, 0x00, 0x00, 0x00,
		  0xcc, 0xfc, 0xff, 0xff, 0x34, 0x00, 0x00, 0x00, 0x73, 0x65, 0x71, 0x75,
		  0x65, 0x6e, 0x74, 0x69, 0x61, 0x6c, 0x2f, 0x64, 0x65, 0x6e, 0x73, 0x65,
		  0x5f, 0x31, 0x2f, 0x4d, 0x61, 0x74, 0x4d, 0x75, 0x6c, 0x3b, 0x73, 0x65,
		  0x71, 0x75, 0x65, 0x6e, 0x74, 0x69, 0x61, 0x6c, 0x2f, 0x64, 0x65, 0x6e,
		  0x73, 0x65, 0x5f, 0x31, 0x2f, 0x42, 0x69, 0x61, 0x73, 0x41, 0x64, 0x64,
		  0x00, 0x00, 0x00, 0x00, 0x02, 0x00, 0x00, 0x00, 0x01, 0x00, 0x00, 0x00,
		  0x10, 0x00, 0x00, 0x00, 0x56, 0xfd, 0xff, 0xff, 0x00, 0x00, 0x00, 0x01,
		  0x14, 0x00, 0x00, 0x00, 0x1c, 0x00, 0x00, 0x00, 0x1c, 0x00, 0x00, 0x00,
		  0x09, 0x00, 0x00, 0x00, 0x30, 0x00, 0x00, 0x00, 0x02, 0x00, 0x00, 0x00,
		  0xff, 0xff, 0xff, 0xff, 0x10, 0x00, 0x00, 0x00, 0x40, 0xfd, 0xff, 0xff,
		  0x15, 0x00, 0x00, 0x00, 0x73, 0x65, 0x71, 0x75, 0x65, 0x6e, 0x74, 0x69,
		  0x61, 0x6c, 0x2f, 0x64, 0x65, 0x6e, 0x73, 0x65, 0x2f, 0x54, 0x61, 0x6e,
		  0x68, 0x00, 0x00, 0x00, 0x02, 0x00, 0x00, 0x00, 0x01, 0x00, 0x00, 0x00,
		  0x10, 0x00, 0x00, 0x00, 0xaa, 0xfd, 0xff, 0xff, 0x00, 0x00, 0x00, 0x01,
		  0x14, 0x00, 0x00, 0x00, 0x1c, 0x00, 0x00, 0x00, 0x1c, 0x00, 0x00, 0x00,
		  0x08, 0x00, 0x00, 0x00, 0x4c, 0x00, 0x00, 0x00, 0x02, 0x00, 0x00, 0x00,
		  0xff, 0xff, 0xff, 0xff, 0x10, 0x00, 0x00, 0x00, 0x94, 0xfd, 0xff, 0xff,
		  0x30, 0x00, 0x00, 0x00, 0x73, 0x65, 0x71, 0x75, 0x65, 0x6e, 0x74, 0x69,
		  0x61, 0x6c, 0x2f, 0x64, 0x65, 0x6e, 0x73, 0x65, 0x2f, 0x4d, 0x61, 0x74,
		  0x4d, 0x75, 0x6c, 0x3b, 0x73, 0x65, 0x71, 0x75, 0x65, 0x6e, 0x74, 0x69,
		  0x61, 0x6c, 0x2f, 0x64, 0x65, 0x6e, 0x73, 0x65, 0x2f, 0x42, 0x69, 0x61,
		  0x73, 0x41, 0x64, 0x64, 0x00, 0x00, 0x00, 0x00, 0x02, 0x00, 0x00, 0x00,
		  0x01, 0x00, 0x00, 0x00, 0x10, 0x00, 0x00, 0x00, 0x86, 0xfe, 0xff, 0xff,
		  0x00, 0x00, 0x00, 0x01, 0x10, 0x00, 0x00, 0x00, 0x10, 0x00, 0x00, 0x00,
		  0x07, 0x00, 0x00, 0x00, 0x28, 0x00, 0x00, 0x00, 0xf4, 0xfd, 0xff, 0xff,
		  0x19, 0x00, 0x00, 0x00, 0x73, 0x65, 0x71, 0x75, 0x65, 0x6e, 0x74, 0x69,
		  0x61, 0x6c, 0x2f, 0x64, 0x65, 0x6e, 0x73, 0x65, 0x5f, 0x32, 0x2f, 0x4d,
		  0x61, 0x74, 0x4d, 0x75, 0x6c, 0x00, 0x00, 0x00, 0x02, 0x00, 0x00, 0x00,
		  0x01, 0x00, 0x00, 0x00, 0x10, 0x00, 0x00, 0x00, 0xce, 0xfe, 0xff, 0xff,
		  0x00, 0x00, 0x00, 0x01, 0x10, 0x00, 0x00, 0x00, 0x10, 0x00, 0x00, 0x00,
		  0x06, 0x00, 0x00, 0x00, 0x28, 0x00, 0x00, 0x00, 0x3c, 0xfe, 0xff, 0xff,
		  0x19, 0x00, 0x00, 0x00, 0x73, 0x65, 0x71, 0x75, 0x65, 0x6e, 0x74, 0x69,
		  0x61, 0x6c, 0x2f, 0x64, 0x65, 0x6e, 0x73, 0x65, 0x5f, 0x31, 0x2f, 0x4d,
		  0x61, 0x74, 0x4d, 0x75, 0x6c, 0x00, 0x00, 0x00, 0x02, 0x00, 0x00, 0x00,
		  0x10, 0x00, 0x00, 0x00, 0x10, 0x00, 0x00, 0x00, 0x16, 0xff, 0xff, 0xff,
		  0x00, 0x00, 0x00, 0x01, 0x10, 0x00, 0x00, 0x00, 0x10, 0x00, 0x00, 0x00,
		  0x05, 0x00, 0x00, 0x00, 0x24, 0x00, 0x00, 0x00, 0x84, 0xfe, 0xff, 0xff,
		  0x17, 0x00, 0x00, 0x00, 0x73, 0x65, 0x71, 0x75, 0x65, 0x6e, 0x74, 0x69,
		  0x61, 0x6c, 0x2f, 0x64, 0x65, 0x6e, 0x73, 0x65, 0x2f, 0x4d, 0x61, 0x74,
		  0x4d, 0x75, 0x6c, 0x00, 0x02, 0x00, 0x00, 0x00, 0x10, 0x00, 0x00, 0x00,
		  0x01, 0x00, 0x00, 0x00, 0x5a, 0xff, 0xff, 0xff, 0x00, 0x00, 0x00, 0x01,
		  0x10, 0x00, 0x00, 0x00, 0x10, 0x00, 0x00, 0x00, 0x04, 0x00, 0x00, 0x00,
		  0x34, 0x00, 0x00, 0x00, 0xc8, 0xfe, 0xff, 0xff, 0x27, 0x00, 0x00, 0x00,
		  0x73, 0x65, 0x71, 0x75, 0x65, 0x6e, 0x74, 0x69, 0x61, 0x6c, 0x2f, 0x64,
		  0x65, 0x6e, 0x73, 0x65, 0x2f, 0x42, 0x69, 0x61, 0x73, 0x41, 0x64, 0x64,
		  0x2f, 0x52, 0x65, 0x61, 0x64, 0x56, 0x61, 0x72, 0x69, 0x61, 0x62, 0x6c,
		  0x65, 0x4f, 0x70, 0x00, 0x01, 0x00, 0x00, 0x00, 0x10, 0x00, 0x00, 0x00,
		  0xaa, 0xff, 0xff, 0xff, 0x00, 0x00, 0x00, 0x01, 0x10, 0x00, 0x00, 0x00,
		  0x10, 0x00, 0x00, 0x00, 0x03, 0x00, 0x00, 0x00, 0x38, 0x00, 0x00, 0x00,
		  0x18, 0xff, 0xff, 0xff, 0x29, 0x00, 0x00, 0x00, 0x73, 0x65, 0x71, 0x75,
		  0x65, 0x6e, 0x74, 0x69, 0x61, 0x6c, 0x2f, 0x64, 0x65, 0x6e, 0x73, 0x65,
		  0x5f, 0x32, 0x2f, 0x42, 0x69, 0x61, 0x73, 0x41, 0x64, 0x64, 0x2f, 0x52,
		  0x65, 0x61, 0x64, 0x56, 0x61, 0x72, 0x69, 0x61, 0x62, 0x6c, 0x65, 0x4f,
		  0x70, 0x00, 0x00, 0x00, 0x01, 0x00, 0x00, 0x00, 0x01, 0x00, 0x00, 0x00,
		  0x00, 0x00, 0x16, 0x00, 0x18, 0x00, 0x14, 0x00, 0x00, 0x00, 0x10, 0x00,
		  0x0c, 0x00, 0x08, 0x00, 0x00, 0x00, 0x00, 0x00, 0x00, 0x00, 0x07, 0x00,
		  0x16, 0x00, 0x00, 0x00, 0x00, 0x00, 0x00, 0x01, 0x10, 0x00, 0x00, 0x00,
		  0x10, 0x00, 0x00, 0x00, 0x02, 0x00, 0x00, 0x00, 0x38, 0x00, 0x00, 0x00,
		  0x84, 0xff, 0xff, 0xff, 0x29, 0x00, 0x00, 0x00, 0x73, 0x65, 0x71, 0x75,
		  0x65, 0x6e, 0x74, 0x69, 0x61, 0x6c, 0x2f, 0x64, 0x65, 0x6e, 0x73, 0x65,
		  0x5f, 0x31, 0x2f, 0x42, 0x69, 0x61, 0x73, 0x41, 0x64, 0x64, 0x2f, 0x52,
		  0x65, 0x61, 0x64, 0x56, 0x61, 0x72, 0x69, 0x61, 0x62, 0x6c, 0x65, 0x4f,
		  0x70, 0x00, 0x00, 0x00, 0x01, 0x00, 0x00, 0x00, 0x10, 0x00, 0x00, 0x00,
		  0x00, 0x00, 0x16, 0x00, 0x1c, 0x00, 0x18, 0x00, 0x00, 0x00, 0x14, 0x00,
		  0x10, 0x00, 0x0c, 0x00, 0x00, 0x00, 0x00, 0x00, 0x08, 0x00, 0x07, 0x00,
		  0x16, 0x00, 0x00, 0x00, 0x00, 0x00, 0x00, 0x01, 0x14, 0x00, 0x00, 0x00,
		  0x20, 0x00, 0x00, 0x00, 0x20, 0x00, 0x00, 0x00, 0x01, 0x00, 0x00, 0x00,
		  0x3c, 0x00, 0x00, 0x00, 0x02, 0x00, 0x00, 0x00, 0xff, 0xff, 0xff, 0xff,
		  0x01, 0x00, 0x00, 0x00, 0x04, 0x00, 0x04, 0x00, 0x04, 0x00, 0x00, 0x00,
		  0x1d, 0x00, 0x00, 0x00, 0x73, 0x65, 0x72, 0x76, 0x69, 0x6e, 0x67, 0x5f,
		  0x64, 0x65, 0x66, 0x61, 0x75, 0x6c, 0x74, 0x5f, 0x64, 0x65, 0x6e, 0x73,
		  0x65, 0x5f, 0x69, 0x6e, 0x70, 0x75, 0x74, 0x3a, 0x30, 0x00, 0x00, 0x00,
		  0x02, 0x00, 0x00, 0x00, 0x01, 0x00, 0x00, 0x00, 0x01, 0x00, 0x00, 0x00,
		  0x02, 0x00, 0x00, 0x00, 0x20, 0x00, 0x00, 0x00, 0x04, 0x00, 0x00, 0x00,
		  0xf4, 0xff, 0xff, 0xff, 0x1c, 0x00, 0x00, 0x00, 0x00, 0x00, 0x00, 0x1c,
		  0x0c, 0x00, 0x0c, 0x00, 0x0b, 0x00, 0x00, 0x00, 0x00, 0x00, 0x04, 0x00,
		  0x0c, 0x00, 0x00, 0x00, 0x09, 0x00, 0x00, 0x00, 0x00, 0x00, 0x00, 0x09
		};
